08fc
053a
0ccf
0891
079b
0b62
0fd5
053a
053a
053a
053a
053a
053a
053a
053a
053a
053a
053a
053a
053a
053a
053a
053a
053a
053a
053a
053a
053a
053a
053a
053a
053a
053a
053a
053a
053a
053a
053a
0ef2
053a
0b16
0939
0efd
0a9a
0df4
0de5
0db9
0ca8
06c9
053a
0c19
0701
0e62
053a
0b79
0fb9
06de
0992
0e17
0e15
053a
0f26
053a
053a
053a
08ce
053a
053a
053a
0629
0d0a
05da
0c96
053a
053a
0636
06e5
053a
053a
06c9
0f6f
053a
0b5d
053a
053a
053a
053a
0725
053a
053a
053a
053a
053a
053a
053a
053a
08a7
053a
053a
053a
05bd
0e42
0623
0bb5
053a
053a
0615
061b
053a
053a
079e
0eff
053a
0aea
053a
053a
053a
053a
07eb
053a
053a
053a
053a
053a
0a71
053a
0ee4
05bc
094c
0c96
0f0f
053a
053a
053a
053a
053a
053a
053a
053a
053a
053a
053a
053a
053a
053a
053a
053a
053a
053a
053a
053a
053a
053a
053a
053a
053a
053a
053a
053a
053a
053a
053a
0c96
053a
071f
062f
0ea8
0d0b
09be
0be9
0b79
0f40
053a
053a
0d49
053a
0b7f
053a
0c3d
0d19
053a
09b6
09fc
0e59
053a
0b71
0ba9
053a
0eeb
053a
0bc0
0c10
09d4
053a
053a
053a
053a
053a
053a
053a
053a
053a
053a
053a
053a
053a
053a
053a
053a
053a
053a
053a
053a
053a
053a
053a
053a
0faa
053a
0c8e
053a
0f8c
0eb0
083e
053a
053a
053a
053a
053a
053a
053a
053a
053a
053a
053a
053a
053a
053a
053a
053a
053a
053a
053a
053a
053a
053a
053a
053a
053a
053a
053a
053a
053a
053a
053a
0c77
053a
0a45
05d8
0cfc
0bab
0c30
0a57
0d43
0abd
05fd
053a
0d4c
053a
0d73
053a
0c28
0dd1
05de
0c2d
0dbf
0f34
05fb
0e4c
053a
053a
053a
053a
053a
053a
053a
0de6
053a
08a6
0da1
0d4b
0610
0c29
0fc6
09e0
0b77
05b5
08d0
06fe
0a98
0b13
053a
0766
0dad
062f
053a
0a2a
089e
053a
0b90
053a
053a
053a
053a
053a
053a
053a
067c
053a
0787
053a
05ed
0a82
074a
053a
0995
053a
053a
053a
0bce
053a
0979
053a
0663
06fe
053a
0f2a
0919
09f5
0bc8
0890
053a
053a
053a
053a
053a
053a
053a
0864
053a
06c5
053a
09da
0af1
07ee
065d
0a07
0868
053a
053a
0c15
053a
0986
053a
0bea
09ed
053a
0be5
0a4c
0e5b
072f
0ab0
053a
053a
053a
053a
053a
053a
053a
0a33
053a
08bc
053a
0b86
0992
0ac0
0875
0af5
08f1
053a
053a
0b4e
053a
0ba9
053a
0c76
0c9f
053a
0b7e
0c51
0e61
0716
0caf
053a
053a
053a
053a
053a
053a
053a
0d80
053a
0884
06c7
0df9
0df8
0aaf
0c1d
0d09
0e50
053a
053a
0e44
053a
0cac
053a
0aa6
0d01
053a
0a86
0b10
0de5
053a
0c53
0ee3
053a
0ef3
053a
0e75
0f12
0ac5
053a
053a
053a
053a
053a
053a
053a
053a
053a
053a
053a
053a
053a
053a
053a
053a
053a
053a
053a
053a
053a
053a
053a
053a
0e91
053a
0e8e
053a
0da8
0f4a
0b68
053a
053a
053a
053a
053a
053a
053a
053a
053a
053a
053a
053a
053a
053a
053a
053a
053a
053a
053a
053a
053a
053a
053a
053a
0962
0cb8
0609
053a
0b51
06d5
053a
053a
053a
053a
053a
053a
053a
053a
053a
053a
053a
053a
053a
053a
053a
053a
053a
053a
053a
053a
053a
053a
053a
053a
053a
053a
053a
053a
053a
053a
053a
053a
0b35
0a2a
0b90
0dd3
0659
053a
0b7b
0a98
099a
053a
0b64
0db6
053a
0b47
09f8
053a
053a
0827
0b6c
053a
0987
053a
053a
0985
053a
053a
053a
053a
053a
053a
053a
0fd2
053a
0ccf
0ad5
0d23
0ab5
0eb6
0e58
0ed9
0b6b
088f
06fb
0c06
07a5
0f4f
053a
07e3
0e59
0887
0926
0df4
0b67
053a
0ead
053a
053a
053a
053a
053a
053a
053a
0f16
053a
0ae2
09f3
0f2a
09ee
0df2
0e6d
0d58
0cc7
06c0
053a
0b60
07a2
0e12
053a
0b40
0fd3
06e0
08ae
0dd5
0d95
053a
0f00
0e0a
083c
0b4a
053a
0f1e
0c22
058a
053a
053a
053a
053a
053a
053a
053a
053a
053a
053a
053a
053a
053a
053a
053a
053a
053a
053a
053a
053a
053a
053a
053a
053a
053a
053a
053a
053a
053a
053a
053a
0828
053a
0683
053a
0a38
094b
082a
068d
0926
083f
053a
053a
0aac
053a
0950
053a
0cfa
0a8b
053a
0aea
0a2c
0e3e
0721
0a9f
053a
053a
053a
053a
053a
053a
053a
0dd1
053a
0c5f
0740
0abc
0d6e
0c9d
0add
0f7a
09e3
0807
053a
0e61
053a
0ebd
053a
06cd
0bab
0763
0be6
0d21
0b49
053a
0d59
053a
053a
053a
053a
053a
053a
053a
0ce1
053a
0ee6
0963
08ed
072b
0f2c
0ad5
0d37
0665
0bc3
062a
08ee
0865
0ea7
053a
053a
0bd2
0c99
0859
0dfa
0817
053a
0d73
053a
053a
053a
053a
053a
053a
053a
0af2
053a
0b12
05ae
0a9c
082c
0c83
08e2
0be5
0778
075e
053a
0a2a
053a
0ca3
053a
09f8
0cbb
078f
0a54
0e1f
0c91
073e
0dfa
053a
053a
053a
053a
053a
053a
053a
0cc7
053a
0ada
0599
0c06
0e12
0bf1
0a03
0e8e
0aba
0652
053a
0f4b
053a
0e1d
053a
0a1e
0cac
05eb
0dd7
0d6e
0e6b
05df
0dd1
053a
053a
053a
053a
053a
053a
053a
0dd3
053a
0b0e
06f9
0bc5
0e45
0be0
0b24
0f0d
0b4f
06bd
053a
0eee
053a
0e1b
053a
0808
0c0c
0619
0bcf
0ca8
0c78
053a
0d3d
0c9b
0a22
0871
053a
0dd1
0a25
053a
053a
053a
053a
053a
053a
053a
053a
053a
053a
053a
053a
053a
053a
053a
053a
053a
053a
053a
053a
053a
053a
053a
053a
053a
053a
053a
053a
053a
053a
053a
053a
0cd1
053a
0ac5
05f0
0cdc
0c54
0caf
0aa1
0db4
0ada
0629
053a
0df0
053a
0e3d
053a
0b5d
0de4
062e
0d1c
0daf
0ec2
0604
0e29
0f7b
053a
0df8
053a
0f4b
0f00
09b5
053a
053a
053a
053a
053a
053a
053a
053a
053a
053a
053a
053a
053a
053a
053a
053a
053a
053a
053a
053a
053a
053a
053a
053a
